<unk>	0
<s>	0
</s>	0
<pad>	0
▁	-2.39901
▁file	-2.92986
▁no	-2.93696
ch	-3.28845
▁directory	-3.30596
▁su	-3.31746
or	-3.37058
not	-3.39906
▁can	-3.44568
▁stat	-3.54397
cp	-3.67868
▁a	-3.80763
n	-3.86063
e	-3.88723
▁not	-3.90209
▁found	-3.94443
▁t	-3.94447
▁re	-3.9695
id	-4.00224
ce	-4.02627
▁lin	-4.02802
feren	-4.04112
um	-4.12067
l	-4.27415
▁co	-4.44506
▁c	-4.5053
▁for	-4.73613
ut	-4.80518
▁error	-4.81392
erm	-4.81706
▁value	-4.82645
▁specified	-4.83734
▁s	-4.8513
and	-4.88394
s	-4.92123
lo	-4.95524
ts	-4.97584
p	-5.02591
ol	-5.07253
tp	-5.09901
nd	-5.44717
▁fi	-5.56199
r	-5.69058
▁in	-5.69551
t	-5.70168
v	-5.73371
ed	-5.73639
d	-5.73979
m	-5.77967
▁cmd	-5.87336
sttp	-5.90381
x	-5.9113
is	-6.02251
▁command	-6.06154
▁o	-6.07904
▁un	-6.24469
a	-6.26855
gm	-6.3252
▁dra	-6.38242
▁ccmd	-6.38396
▁cmda	-6.38822
at	-6.42059
▁dla	-6.46973
▁ha	-6.48414
lu	-6.53109
ul	-6.53675
sc	-6.548
c	-6.55078
▁m	-6.55783
▁comm	-6.56029
▁g	-6.56353
xp	-6.56631
▁function	-6.58571
▁before	-6.59074
ing	-6.6059
ear	-6.65078
▁compile	-6.69937
emp	-6.72015
▁do	-6.72699
ect	-6.74021
▁j	-6.75146
re	-6.76459
tool	-6.76714
o	-6.76767
▁def	-6.77686
ad	-6.78617
▁wss	-6.78892
q	-6.81119
▁us	-6.81133
▁key	-6.8142
din	-6.84626
porte	-6.84934
tr	-6.85506
▁st	-6.86573
▁failed	-6.87673
▁syn	-6.88118
nu	-6.88465
▁on	-6.888
f	-6.89303
▁r	-6.89792
ta	-6.90886
▁make	-6.90997
▁n	-6.96066
declar	-6.96428
i	-6.98589
ne	-7.0048
▁l	-7.01278
ea	-7.02115
▁fail	-7.0335
▁declar	-7.05774
tion	-7.07573
ent	-7.12015
rm	-7.12631
ll	-7.13908
no	-7.14643
ge	-7.17323
▁w	-7.17379
th	-7.20233
▁u	-7.21354
en	-7.21587
stan	-7.22241
▁at	-7.22862
use	-7.24264
est	-7.24322
ppc	-7.25328
▁any	-7.25439
sion	-7.27389
▁to	-7.28679
u	-7.32838
▁p	-7.33675
▁app	-7.37846
▁cc	-7.39065
▁it	-7.39217
y	-7.40163
ld	-7.42091
▁th	-7.43275
st	-7.4397
ption	-7.44213
▁d	-7.45989
ied	-7.46958
▁requ	-7.47254
▁con	-7.48599
bounds	-7.50865
▁conflict	-7.51072
revi	-7.5119
data	-7.52191
ign	-7.55193
recognized	-7.56178
ou	-7.62201
error	-7.66155
ine	-7.67009
rs	-7.69873
md	-7.70474
▁li	-7.7161
▁remov	-7.7747
ty	-7.77977
h	-7.79171
▁he	-7.80693
▁type	-7.80877
den	-7.85153
invalid	-7.86111
▁te	-7.87538
ai	-7.89904
▁be	-7.90302
su	-7.92153
fi	-7.92233
k	-7.94474
▁lflx	-7.95845
ke	-7.97124
ker	-7.97316
link	-8.00024
ack	-8.04912
ifie	-8.05302
cess	-8.07347
▁fol	-8.0903
ok	-8.10416
der	-8.11319
enti	-8.1237
▁ope	-8.14506
one	-8.15044
▁ls	-8.17209
▁ca	-8.18752
ot	-8.23227
▁symbol	-8.236
▁h	-8.23753
▁al	-8.26082
os	-8.26286
b	-8.31173
ca	-8.3181
▁link	-8.32195
ate	-8.32735
▁tool	-8.34812
te	-8.37774
▁object	-8.37897
w	-8.44645
▁jira	-8.47558
lea	-8.48643
▁b	-8.5617
ter	-8.60176
▁wa	-8.67408
ub	-8.69252
port	-8.7362
▁tools	-8.7469
ion	-8.74794
us	-8.77025
al	-8.77952
etu	-8.78616
file	-8.80819
in	-8.82906
er	-8.833
able	-8.83842
mode	-8.8386
vx	-8.85342
it	-8.87227
▁unknown	-8.88927
▁text	-8.88954
snmp	-8.89049
nce	-8.89239
ead	-8.89453
ha	-8.91358
mb	-8.91797
▁unde	-8.94029
▁an	-8.94878
▁cou	-8.95266
fie	-8.95909
rd	-8.971
up	-8.98623
ro	-9.02713
ere	-9.03044
▁attribute	-9.05542
▁exception	-9.05542
eq	-9.06542
ded	-9.09625
▁pro	-9.14266
rt	-9.14465
ver	-9.17444
▁de	-9.18399
▁repo	-9.19363
dn	-9.22356
ar	-9.23111
▁f	-9.23627
g	-9.2542
ob	-9.26697
pt	-9.3007
directory	-9.3074
nt	-9.32303
clar	-9.32908
defin	-9.32984
▁by	-9.33526
▁buil	-9.33962
set	-9.35323
ttp	-9.38933
ard	-9.40876
process	-9.41629
ons	-9.4645
ap	-9.4789
▁exp	-9.48201
an	-9.49116
on	-9.49416
tes	-9.54472
to	-9.5665
ic	-9.60022
▁execut	-9.60718
warning	-9.60719
found	-9.63174
mp	-9.63178
can	-9.64547
crea	-9.65052
sta	-9.67691
cre	-9.67807
stat	-9.68116
ore	-9.69861
▁i	-9.71023
ared	-9.72031
▁root	-9.73148
erator	-9.74582
non	-9.75797
mat	-9.76095
▁se	-9.76773
▁pa	-9.78712
▁comp	-9.79453
cau	-9.80221
ck	-9.81827
le	-9.8334
▁di	-9.83978
py	-9.85381
un	-9.87335
pr	-9.98539
iti	-10.0002
▁op	-10.0626
▁manifest	-10.1528
▁return	-10.1528
▁section	-10.153
ject	-10.1534
revision	-10.1599
cal	-10.1834
fin	-10.1991
ir	-10.2028
lic	-10.2105
ize	-10.2108
ri	-10.2119
▁too	-10.2214
ani	-10.2332
are	-10.2334
any	-10.248
lin	-10.2491
he	-10.3087
mo	-10.3418
me	-10.3532
sser	-10.3603
app	-10.3727
ht	-10.3809
▁v	-10.3855
▁exit	-10.3871
▁exi	-10.3997
ire	-10.4326
dir	-10.4452
pen	-10.4703
eb	-10.5229
▁lib	-10.5278
ting	-10.5464
ry	-10.5782
▁ba	-10.5898
▁e	-10.6099
cope	-10.6134
▁git	-10.6174
▁auto	-10.6297
sp	-10.6306
ra	-10.6749
ail	-10.6896
la	-10.7256
ma	-10.7708
cl	-10.788
co	-10.825
ze	-10.8291
▁err	-10.8316
da	-10.8555
for	-10.9221
gn	-10.9426
atu	-10.9462
lap	-10.984
specified	-10.9982
opera	-11.0167
tory	-11.0284
ws	-11.0635
value	-11.0788
comm	-11.1097
make	-11.175
▁fo	-11.1935
▁ccp	-11.1942
va	-11.2038
▁la	-11.2662
ac	-11.3112
op	-11.3228
evi	-11.3427
▁pr	-11.3442
il	-11.3456
ve	-11.3844
cting	-11.3847
di	-11.3972
▁import	-11.4363
conf	-11.4389
▁pre	-11.445
cmd	-11.4867
ci	-11.5383
pe	-11.6195
oun	-11.651
root	-11.6641
int	-11.703
▁fa	-11.7159
de	-11.7332
ls	-11.7364
▁sc	-11.9016
be	-11.9043
exp	-11.9536
as	-11.9645
si	-11.9755
▁ma	-12.2267
buil	-12.307
ake	-12.3104
vi	-12.3644
ease	-12.3782
z	-12.3964
▁director	-12.4208
but	-12.4563
ym	-12.4844
se	-12.5418
command	-12.8621
▁lo	-12.8871
▁po	-12.9806
ccp	-13.047
▁man	-13.2313
ss	-13.3212
rea	-13.4053
eclar	-13.6095
▁out	-13.6122
ers	-13.7517
ccmd	-13.802
cmda	-13.812
j	-13.812
